{
    "<unk>": 0,
    "<s>": 1,
    "</s>": 2,
    ".": 3,
    "/": 4,
    "<": 5,
    ">": 6,
    "A": 7,
    "B": 8,
    "C": 9,
    "D": 10,
    "E": 11,
    "G": 12,
    "H": 13,
    "I": 14,
    "K": 15,
    "L": 16,
    "M": 17,
    "N": 18,
    "Norm": 19,
    "O": 20,
    "P": 21,
    "Q": 22,
    "R": 23,
    "S": 24,
    "T": 25,
    "V": 26,
    "W": 27,
    "a": 28,
    "ab": 29,
    "abil": 30,
    "ac": 31,
    "ack": 32,
    "ad": 33,
    "ae.": 34,
    "ag": 35,
    "ages.": 36,
    "ail": 37,
    "ails.": 38,
    "ain": 39,
    "air": 40,
    "ak": 41,
    "al": 42,
    "ala": 43,
    "alizers": 44,
    "all.": 45,
    "als": 46,
    "als.": 47,
    "alu": 48,
    "am": 49,
    "amp": 50,
    "an": 51,
    "ance.": 52,
    "and": 53,
    "ang": 54,
    "ans": 55,
    "ant": 56,
    "ap": 57,
    "ar": 58,
    "ar.": 59,
    "ard": 60,
    "ark": 61,
    "ark.": 62,
    "arm": 63,
    "ars": 64,
    "as": 65,
    "ass": 66,
    "ast": 67,
    "astic": 68,
    "asts": 69,
    "at": 70,
    "ate": 71,
    "ates": 72,
    "ates.": 73,
    "ations": 74,
    "ations.": 75,
    "ators": 76,
    "ats.": 77,
    "av": 78,
    "aw": 79,
    "ax": 80,
    "ay": 81,
    "ay.": 82,
    "az": 83,
    "b": 84,
    "ball.": 85,
    "bb": 86,
    "ber": 87,
    "bs": 88,
    "bs.": 89,
    "c": 90,
    "ce.": 91,
    "ch": 92,
    "che": 93,
    "ches": 94,
    "ches.": 95,
    "ck": 96,
    "cks": 97,
    "cks.": 98,
    "co": 99,
    "coders": 100,
    "cor": 101,
    "cri": 102,
    "ct": 103,
    "d": 104,
    "d.": 105,
    "ders": 106,
    "dg": 107,
    "dge": 108,
    "dic": 109,
    "ding": 110,
    "dings": 111,
    "ds": 112,
    "ds.": 113,
    "duc": 114,
    "e": 115,
    "e.": 116,
    "ea": 117,
    "eads": 118,
    "ean": 119,
    "eat": 120,
    "eav": 121,
    "eb": 122,
    "ec": 123,
    "ect": 124,
    "ects.": 125,
    "eds.": 126,
    "eer": 127,
    "eg": 128,
    "el": 129,
    "els": 130,
    "els.": 131,
    "em": 132,
    "ems.": 133,
    "en": 134,
    "en.": 135,
    "enc": 136,
    "ence.": 137,
    "ences": 138,
    "ener": 139,
    "ens": 140,
    "ent": 141,
    "enter": 142,
    "ents": 143,
    "ents.": 144,
    "ep": 145,
    "ep.": 146,
    "er": 147,
    "er.": 148,
    "erm": 149,
    "ers": 150,
    "ers.": 151,
    "erv": 152,
    "es": 153,
    "es.": 154,
    "ess": 155,
    "ests": 156,
    "et": 157,
    "et.": 158,
    "eta": 159,
    "ets": 160,
    "ets.": 161,
    "ex": 162,
    "ext.": 163,
    "ey": 164,
    "f": 165,
    "ff": 166,
    "ffic": 167,
    "form": 168,
    "ft": 169,
    "ft.": 170,
    "g": 171,
    "ge": 172,
    "ger": 173,
    "gs.": 174,
    "gu": 175,
    "h": 176,
    "h.": 177,
    "he": 178,
    "her": 179,
    "hin": 180,
    "i": 181,
    "ic": 182,
    "ice": 183,
    "ice.": 184,
    "ici": 185,
    "ician": 186,
    "ick": 187,
    "ics": 188,
    "ics.": 189,
    "id": 190,
    "id.": 191,
    "idd": 192,
    "ide": 193,
    "ients.": 194,
    "ies": 195,
    "ies.": 196,
    "if": 197,
    "ig": 198,
    "igates": 199,
    "igh": 200,
    "ign": 201,
    "il": 202,
    "ild": 203,
    "ilk": 204,
    "im": 205,
    "in": 206,
    "in.": 207,
    "ine": 208,
    "ines.": 209,
    "ing": 210,
    "ing.": 211,
    "ints.": 212,
    "iol": 213,
    "ion": 214,
    "ion.": 215,
    "ions": 216,
    "ions.": 217,
    "ip": 218,
    "ir": 219,
    "irc": 220,
    "ires.": 221,
    "iron": 222,
    "is": 223,
    "ish.": 224,
    "ist": 225,
    "it": 226,
    "its": 227,
    "its.": 228,
    "ity.": 229,
    "iv": 230,
    "ive.": 231,
    "ivers": 232,
    "iz": 233,
    "ize": 234,
    "izers": 235,
    "j": 236,
    "ject": 237,
    "k": 238,
    "ken": 239,
    "kes": 240,
    "ket": 241,
    "l": 242,
    "l.": 243,
    "lass": 244,
    "le": 245,
    "le.": 246,
    "les.": 247,
    "lex": 248,
    "ley": 249,
    "lo": 250,
    "low": 251,
    "ls": 252,
    "m": 253,
    "m.": 254,
    "min": 255,
    "mp": 256,
    "n": 257,
    "ns.": 258,
    "o": 259,
    "o.": 260,
    "oat": 261,
    "oc": 262,
    "oes.": 263,
    "og": 264,
    "ol": 265,
    "old": 266,
    "on": 267,
    "on.": 268,
    "one": 269,
    "ong": 270,
    "ong.": 271,
    "oo": 272,
    "ook": 273,
    "ooks.": 274,
    "oot": 275,
    "op": 276,
    "or": 277,
    "orm": 278,
    "orn": 279,
    "orp": 280,
    "ors": 281,
    "ory.": 282,
    "ot": 283,
    "ow": 284,
    "p": 285,
    "p.": 286,
    "per": 287,
    "po": 288,
    "pp": 289,
    "ps.": 290,
    "puts.": 291,
    "q": 292,
    "qu": 293,
    "r": 294,
    "ra": 295,
    "rans": 296,
    "re": 297,
    "res": 298,
    "ress": 299,
    "ri": 300,
    "ries.": 301,
    "rit": 302,
    "ro": 303,
    "row": 304,
    "ru": 305,
    "rubs.": 306,
    "ruct": 307,
    "ry.": 308,
    "s": 309,
    "s.": 310,
    "se": 311,
    "st": 312,
    "struct": 313,
    "t": 314,
    "t.": 315,
    "tain": 316,
    "ter": 317,
    "ters": 318,
    "ters.": 319,
    "tim": 320,
    "tions.": 321,
    "ton.": 322,
    "tra": 323,
    "tract": 324,
    "ts": 325,
    "ts.": 326,
    "tt": 327,
    "tu": 328,
    "u": 329,
    "uc": 330,
    "ud": 331,
    "ug": 332,
    "ugh.": 333,
    "ul": 334,
    "ular": 335,
    "ulate": 336,
    "um": 337,
    "umm": 338,
    "un": 339,
    "up": 340,
    "ur": 341,
    "ures.": 342,
    "us": 343,
    "us.": 344,
    "use": 345,
    "uses.": 346,
    "ut": 347,
    "utions": 348,
    "uts": 349,
    "uts.": 350,
    "v": 351,
    "ver": 352,
    "ves": 353,
    "w": 354,
    "w.": 355,
    "ws": 356,
    "x": 357,
    "xes": 358,
    "y": 359,
    "y.": 360,
    "yc": 361,
    "yn": 362,
    "ynt": 363,
    "yp": 364,
    "z": 365,
    "▁": 366,
    "▁<": 367,
    "▁</": 368,
    "▁</s": 369,
    "▁</s>": 370,
    "▁A": 371,
    "▁Act": 372,
    "▁Att": 373,
    "▁Attent": 374,
    "▁B": 375,
    "▁C": 376,
    "▁Con": 377,
    "▁D": 378,
    "▁Dec": 379,
    "▁Deco": 380,
    "▁Decoders": 381,
    "▁E": 382,
    "▁Em": 383,
    "▁Emb": 384,
    "▁Embe": 385,
    "▁Embed": 386,
    "▁Embeddings": 387,
    "▁En": 388,
    "▁Encoders": 389,
    "▁Ex": 390,
    "▁Exp": 391,
    "▁G": 392,
    "▁H": 393,
    "▁I": 394,
    "▁In": 395,
    "▁K": 396,
    "▁L": 397,
    "▁Lay": 398,
    "▁O": 399,
    "▁P": 400,
    "▁R": 401,
    "▁Reg": 402,
    "▁S": 403,
    "▁St": 404,
    "▁T": 405,
    "▁The": 406,
    "▁Trans": 407,
    "▁Transform": 408,
    "▁V": 409,
    "▁Valu": 410,
    "▁Values": 411,
    "▁a": 412,
    "▁acor": 413,
    "▁acorns.": 414,
    "▁ad": 415,
    "▁al": 416,
    "▁an": 417,
    "▁anal": 418,
    "▁analy": 419,
    "▁analyz": 420,
    "▁ant": 421,
    "▁ante": 422,
    "▁anteat": 423,
    "▁anteater": 424,
    "▁antelo": 425,
    "▁antelop": 426,
    "▁antelope": 427,
    "▁app": 428,
    "▁apples.": 429,
    "▁ar": 430,
    "▁arch": 431,
    "▁archit": 432,
    "▁architect": 433,
    "▁arm": 434,
    "▁armad": 435,
    "▁armadil": 436,
    "▁armadillo": 437,
    "▁art": 438,
    "▁artist": 439,
    "▁b": 440,
    "▁ba": 441,
    "▁bad": 442,
    "▁badger": 443,
    "▁bak": 444,
    "▁baker": 445,
    "▁bakes": 446,
    "▁bam": 447,
    "▁bamb": 448,
    "▁bamboo": 449,
    "▁bamboo.": 450,
    "▁ban": 451,
    "▁banan": 452,
    "▁banana": 453,
    "▁bananas.": 454,
    "▁bark.": 455,
    "▁bas": 456,
    "▁bat": 457,
    "▁be": 458,
    "▁bear": 459,
    "▁beav": 460,
    "▁beaver": 461,
    "▁beet": 462,
    "▁beetles.": 463,
    "▁ber": 464,
    "▁berries.": 465,
    "▁bir": 466,
    "▁bird": 467,
    "▁birds.": 468,
    "▁bis": 469,
    "▁bison": 470,
    "▁bl": 471,
    "▁blu": 472,
    "▁bo": 473,
    "▁bon": 474,
    "▁bones.": 475,
    "▁boy": 476,
    "▁br": 477,
    "▁bra": 478,
    "▁bre": 479,
    "▁bread": 480,
    "▁bread.": 481,
    "▁bri": 482,
    "▁brigh": 483,
    "▁bright.": 484,
    "▁bu": 485,
    "▁buds.": 486,
    "▁buff": 487,
    "▁buffal": 488,
    "▁buffalo.": 489,
    "▁build": 490,
    "▁builds": 491,
    "▁c": 492,
    "▁cak": 493,
    "▁cam": 494,
    "▁camel": 495,
    "▁cap": 496,
    "▁captu": 497,
    "▁capture": 498,
    "▁car": 499,
    "▁carp": 500,
    "▁carpenter": 501,
    "▁carro": 502,
    "▁carrots.": 503,
    "▁cat": 504,
    "▁ch": 505,
    "▁chair": 506,
    "▁che": 507,
    "▁chees": 508,
    "▁cheeta": 509,
    "▁cheetah": 510,
    "▁chef": 511,
    "▁chem": 512,
    "▁chick": 513,
    "▁chicken.": 514,
    "▁child": 515,
    "▁cl": 516,
    "▁clam": 517,
    "▁clams.": 518,
    "▁cle": 519,
    "▁clo": 520,
    "▁clover": 521,
    "▁clover.": 522,
    "▁co": 523,
    "▁cod": 524,
    "▁col": 525,
    "▁cold.": 526,
    "▁comp": 527,
    "▁con": 528,
    "▁cond": 529,
    "▁cont": 530,
    "▁conver": 531,
    "▁cook": 532,
    "▁cow": 533,
    "▁cr": 534,
    "▁cra": 535,
    "▁crab": 536,
    "▁crabs.": 537,
    "▁cri": 538,
    "▁d": 539,
    "▁dat": 540,
    "▁data": 541,
    "▁data.": 542,
    "▁de": 543,
    "▁deep.": 544,
    "▁deer": 545,
    "▁deer.": 546,
    "▁def": 547,
    "▁define": 548,
    "▁del": 549,
    "▁delivers": 550,
    "▁des": 551,
    "▁design": 552,
    "▁designs": 553,
    "▁di": 554,
    "▁dim": 555,
    "▁dimens": 556,
    "▁dimensions.": 557,
    "▁dire": 558,
    "▁do": 559,
    "▁doct": 560,
    "▁doctor": 561,
    "▁dog": 562,
    "▁dol": 563,
    "▁dolp": 564,
    "▁dolphin": 565,
    "▁dra": 566,
    "▁draf": 567,
    "▁drafts": 568,
    "▁dri": 569,
    "▁driver": 570,
    "▁du": 571,
    "▁duck": 572,
    "▁e": 573,
    "▁eag": 574,
    "▁eagle": 575,
    "▁eat": 576,
    "▁eats": 577,
    "▁eg": 578,
    "▁eggs.": 579,
    "▁el": 580,
    "▁ele": 581,
    "▁elect": 582,
    "▁electr": 583,
    "▁electrician": 584,
    "▁elep": 585,
    "▁eleph": 586,
    "▁elephant": 587,
    "▁elk": 588,
    "▁en": 589,
    "▁eng": 590,
    "▁engin": 591,
    "▁engineer": 592,
    "▁ev": 593,
    "▁evalu": 594,
    "▁evaluate": 595,
    "▁ex": 596,
    "▁exec": 597,
    "▁execut": 598,
    "▁execute": 599,
    "▁extract": 600,
    "▁f": 601,
    "▁farm": 602,
    "▁farmer": 603,
    "▁fas": 604,
    "▁fast.": 605,
    "▁feat": 606,
    "▁features.": 607,
    "▁fi": 608,
    "▁fire": 609,
    "▁firef": 610,
    "▁firefigh": 611,
    "▁firefighter": 612,
    "▁fis": 613,
    "▁fish.": 614,
    "▁fisher": 615,
    "▁fisherm": 616,
    "▁fisherman": 617,
    "▁fixes": 618,
    "▁fl": 619,
    "▁flow": 620,
    "▁fo": 621,
    "▁fox": 622,
    "▁fra": 623,
    "▁frag": 624,
    "▁fragil": 625,
    "▁fragile.": 626,
    "▁fres": 627,
    "▁fresh.": 628,
    "▁fro": 629,
    "▁frog": 630,
    "▁frogs.": 631,
    "▁fru": 632,
    "▁fruit": 633,
    "▁fruit.": 634,
    "▁g": 635,
    "▁gard": 636,
    "▁gardener": 637,
    "▁ge": 638,
    "▁gear": 639,
    "▁gears.": 640,
    "▁gener": 641,
    "▁generate": 642,
    "▁gi": 643,
    "▁gir": 644,
    "▁gira": 645,
    "▁giraff": 646,
    "▁giraffe": 647,
    "▁girl": 648,
    "▁goat": 649,
    "▁gra": 650,
    "▁grain.": 651,
    "▁gras": 652,
    "▁grass.": 653,
    "▁gre": 654,
    "▁green.": 655,
    "▁grubs.": 656,
    "▁gu": 657,
    "▁h": 658,
    "▁har": 659,
    "▁hard": 660,
    "▁hard.": 661,
    "▁hares.": 662,
    "▁haw": 663,
    "▁hawk": 664,
    "▁hay.": 665,
    "▁he": 666,
    "▁heav": 667,
    "▁heavy.": 668,
    "▁hedge": 669,
    "▁hedgeh": 670,
    "▁hedgehog": 671,
    "▁her": 672,
    "▁herbs.": 673,
    "▁hi": 674,
    "▁hig": 675,
    "▁high.": 676,
    "▁hipp": 677,
    "▁hippo": 678,
    "▁ho": 679,
    "▁hone": 680,
    "▁honey.": 681,
    "▁hor": 682,
    "▁horse": 683,
    "▁hot.": 684,
    "▁hun": 685,
    "▁hunter": 686,
    "▁hy": 687,
    "▁hyen": 688,
    "▁hyena": 689,
    "▁im": 690,
    "▁imp": 691,
    "▁in": 692,
    "▁inputs.": 693,
    "▁ins": 694,
    "▁insects.": 695,
    "▁inst": 696,
    "▁is": 697,
    "▁j": 698,
    "▁jack": 699,
    "▁jackal": 700,
    "▁jud": 701,
    "▁judge": 702,
    "▁k": 703,
    "▁kang": 704,
    "▁kangar": 705,
    "▁kangaroo": 706,
    "▁kn": 707,
    "▁ko": 708,
    "▁koala": 709,
    "▁kr": 710,
    "▁kril": 711,
    "▁krill.": 712,
    "▁l": 713,
    "▁land": 714,
    "▁lands": 715,
    "▁lar": 716,
    "▁larv": 717,
    "▁larvae.": 718,
    "▁law": 719,
    "▁lawy": 720,
    "▁lawyer": 721,
    "▁le": 722,
    "▁lear": 723,
    "▁learn": 724,
    "▁leav": 725,
    "▁leaves.": 726,
    "▁lem": 727,
    "▁lemur": 728,
    "▁leop": 729,
    "▁leopard": 730,
    "▁let": 731,
    "▁lett": 732,
    "▁lettuc": 733,
    "▁lettuce.": 734,
    "▁li": 735,
    "▁likes": 736,
    "▁lion": 737,
    "▁lo": 738,
    "▁lobs": 739,
    "▁lobster": 740,
    "▁long.": 741,
    "▁m": 742,
    "▁mang": 743,
    "▁mangoes.": 744,
    "▁mat": 745,
    "▁me": 746,
    "▁mean": 747,
    "▁meat": 748,
    "▁meat.": 749,
    "▁mec": 750,
    "▁mech": 751,
    "▁mechan": 752,
    "▁mechanic": 753,
    "▁meer": 754,
    "▁meerk": 755,
    "▁meerkat": 756,
    "▁mice.": 757,
    "▁milk": 758,
    "▁milk.": 759,
    "▁mo": 760,
    "▁mol": 761,
    "▁mole": 762,
    "▁mon": 763,
    "▁monk": 764,
    "▁monkey": 765,
    "▁moo": 766,
    "▁moose": 767,
    "▁mouse": 768,
    "▁mus": 769,
    "▁musician": 770,
    "▁n": 771,
    "▁nur": 772,
    "▁nurse": 773,
    "▁nuts.": 774,
    "▁o": 775,
    "▁oct": 776,
    "▁octop": 777,
    "▁octopus": 778,
    "▁offic": 779,
    "▁officer": 780,
    "▁oil": 781,
    "▁oper": 782,
    "▁ot": 783,
    "▁otter": 784,
    "▁out": 785,
    "▁ow": 786,
    "▁owl": 787,
    "▁p": 788,
    "▁pand": 789,
    "▁panda": 790,
    "▁pat": 791,
    "▁pean": 792,
    "▁peanuts.": 793,
    "▁pen": 794,
    "▁pengu": 795,
    "▁penguin": 796,
    "▁per": 797,
    "▁perform": 798,
    "▁performs": 799,
    "▁ph": 800,
    "▁phy": 801,
    "▁phys": 802,
    "▁physics.": 803,
    "▁pig": 804,
    "▁pil": 805,
    "▁pilot": 806,
    "▁pl": 807,
    "▁plan": 808,
    "▁plants.": 809,
    "▁plat": 810,
    "▁platyp": 811,
    "▁platypus": 812,
    "▁play": 813,
    "▁plays": 814,
    "▁plum": 815,
    "▁plumber": 816,
    "▁po": 817,
    "▁pol": 818,
    "▁polar": 819,
    "▁police": 820,
    "▁por": 821,
    "▁porc": 822,
    "▁porcup": 823,
    "▁porcupine": 824,
    "▁post": 825,
    "▁postal": 826,
    "▁pre": 827,
    "▁predic": 828,
    "▁pres": 829,
    "▁pro": 830,
    "▁proc": 831,
    "▁process": 832,
    "▁project": 833,
    "▁prov": 834,
    "▁provide": 835,
    "▁qu": 836,
    "▁quer": 837,
    "▁r": 838,
    "▁ra": 839,
    "▁rabb": 840,
    "▁rabbit": 841,
    "▁rabbits.": 842,
    "▁rac": 843,
    "▁racco": 844,
    "▁raccoon": 845,
    "▁re": 846,
    "▁read": 847,
    "▁reads": 848,
    "▁recor": 849,
    "▁records": 850,
    "▁rep": 851,
    "▁repres": 852,
    "▁represent": 853,
    "▁representations.": 854,
    "▁rhin": 855,
    "▁rhino": 856,
    "▁ri": 857,
    "▁rice.": 858,
    "▁ro": 859,
    "▁rod": 860,
    "▁rodents.": 861,
    "▁roo": 862,
    "▁roots.": 863,
    "▁s": 864,
    "▁sal": 865,
    "▁salm": 866,
    "▁salt": 867,
    "▁salty.": 868,
    "▁samp": 869,
    "▁samples.": 870,
    "▁sc": 871,
    "▁sci": 872,
    "▁scient": 873,
    "▁scientist": 874,
    "▁se": 875,
    "▁sea": 876,
    "▁seal": 877,
    "▁seals.": 878,
    "▁seeds.": 879,
    "▁sem": 880,
    "▁semant": 881,
    "▁semantics.": 882,
    "▁sh": 883,
    "▁shark": 884,
    "▁she": 885,
    "▁sheep": 886,
    "▁shif": 887,
    "▁shoo": 888,
    "▁shoots.": 889,
    "▁shre": 890,
    "▁shrew": 891,
    "▁shri": 892,
    "▁shrimp": 893,
    "▁shrimp.": 894,
    "▁shrubs.": 895,
    "▁sil": 896,
    "▁sing": 897,
    "▁singer": 898,
    "▁sk": 899,
    "▁sket": 900,
    "▁sketches": 901,
    "▁skun": 902,
    "▁skunk": 903,
    "▁slo": 904,
    "▁slot": 905,
    "▁sloth": 906,
    "▁sm": 907,
    "▁sn": 908,
    "▁snails.": 909,
    "▁snak": 910,
    "▁snake": 911,
    "▁snakes.": 912,
    "▁so": 913,
    "▁soft.": 914,
    "▁sp": 915,
    "▁spid": 916,
    "▁spiders.": 917,
    "▁squ": 918,
    "▁squid.": 919,
    "▁squir": 920,
    "▁squirre": 921,
    "▁squirrel": 922,
    "▁st": 923,
    "▁states.": 924,
    "▁ste": 925,
    "▁steers": 926,
    "▁stems.": 927,
    "▁stor": 928,
    "▁str": 929,
    "▁strong.": 930,
    "▁stud": 931,
    "▁student": 932,
    "▁studies": 933,
    "▁sug": 934,
    "▁sugar": 935,
    "▁sw": 936,
    "▁swe": 937,
    "▁sweet.": 938,
    "▁t": 939,
    "▁tea": 940,
    "▁teache": 941,
    "▁teacher": 942,
    "▁teaches": 943,
    "▁ten": 944,
    "▁tests": 945,
    "▁text.": 946,
    "▁th": 947,
    "▁tig": 948,
    "▁tiger": 949,
    "▁tim": 950,
    "▁to": 951,
    "▁token": 952,
    "▁tokens.": 953,
    "▁tough.": 954,
    "▁tra": 955,
    "▁train": 956,
    "▁tru": 957,
    "▁trucks.": 958,
    "▁tur": 959,
    "▁turt": 960,
    "▁turtle": 961,
    "▁tw": 962,
    "▁twig": 963,
    "▁twigs.": 964,
    "▁v": 965,
    "▁valu": 966,
    "▁values.": 967,
    "▁vol": 968,
    "▁w": 969,
    "▁wal": 970,
    "▁walru": 971,
    "▁walrus": 972,
    "▁warm": 973,
    "▁warm.": 974,
    "▁wat": 975,
    "▁we": 976,
    "▁weeds.": 977,
    "▁weigh": 978,
    "▁weights.": 979,
    "▁wh": 980,
    "▁whal": 981,
    "▁whale": 982,
    "▁whit": 983,
    "▁white.": 984,
    "▁win": 985,
    "▁wind": 986,
    "▁wo": 987,
    "▁wol": 988,
    "▁wolf": 989,
    "▁woo": 990,
    "▁wood": 991,
    "▁wor": 992,
    "▁words.": 993,
    "▁work": 994,
    "▁worker": 995,
    "▁worm": 996,
    "▁worms.": 997,
    "▁writ": 998,
    "▁writer": 999,
    "▁z": 1000,
    "▁zeb": 1001,
    "▁zebra": 1002
}